F8
01
F5
E2
EF
02
FF
06
0A
06
F5
EF
0B
16
0B
FB
FD
07
15
EE
FF
F7
EA
FC
EE
F6
05
EE
FB
0A
F9
0C
E8
F9
00
20
11
F2
F8
22
05
08
00
D6
FD
05
3C
03
F1
DD
ED
03
0E
F6
EA
EE
F9
0A
21
FD
E6
C8
0D
42
F0
01
05
F7
F5
12
F5
E4
0B
1A
FF
FA
0B
FD
0A
00
0C
03
F6
EF
06
0D
FE
EE
1B
FC
00
0C
0A
F3
F9
FB
2E
B3
0C
E4
21
1B
FD
0D
FD
EE
17
75
10
C6
D0
FE
E9
01
FA
E3
F3
43
DB
FC
EF
4B
18
C0
0B
26
4E
19
F0
7F
F2
32
ED
FE
FD
EB
0A
F9
05
E0
F5
44
2F
FE
67
03
14
01
02
F5
48
F9
01
0C
E9
1F
08
15
B4
D0
12
C3
14
ED
20
1F
F4
12
F3
12
FF
4B
0E
D7
DF
02
E1
18
00
FE
0F
29
D6
11
EE
22
01
C7
0E
1A
65
0D
04
ED
EA
EA
02
FC
F5
F0
07
EF
08
0C
FD
F2
F6
05
0C
EF
09
03
F2
FE
0C
05
02
FC
EA
02
F5
FC
F2
F8
2A
EB
FE
02
0D
2B
FF
F8
FB
F4
12
58
0C
D8
DB
F6
0B
F6
F2
DD
F9
47
EB
EF
0C
37
EF
E3
0F
28
59
ED
0F
D3
09
FD
0E
0A
FB
0A
09
09
07
44
0B
E2
FD
01
E5
EA
09
0F
F7
1C
DD
F7
FD
08
16
DA
F2
FE
57
2D
C4
26
E8
00
20
E0
0B
16
0C
0C
00
A8
FB
1F
69
ED
EF
03
06
53
ED
B7
1E
07
08
F9
39
1F
F8
CC
F9
4A
E8
E8
FE
EE
38
EB
0D
16
F6
F6
03
AB
14
0F
36
03
C8
E3
E7
40
0C
DE
E5
16
08
15
33
1E
E2
C4
10
5E
0D
22
00
15
EE
02
01
EF
00
07
E9
19
F4
21
0E
08
21
13
17
00
10
23
F4
05
06
F0
E7
08
1C
09
F2
E0
EF
07
0B
F7
F5
EF
06
F8
00
01
01
F1
03
0C
14
02
12
09
1D
FD
0A
09
F5
04
15
F7
EE
0F
05
FA
EB
FD
08
3F
F2
20
E7
FA
EF
04
0F
13
FE
F2
FF
2B
13
03
37
15
FD
05
03
09
2D
17
0B
EB
E1
11
1F
03
D3
CF
F7
09
F8
03
FA
EB
08
00
09
00
F5
F1
12
FB
14
07
02
F0
01
F4
FF
00
DA
00
FC
08
FB
E5
F6
D4
00
F2
EA
E2
03
EE
09
11
00
EF
F1
0D
0E
03
F9
FE
19
F8
E5
ED
0E
20
03
DA
EF
FC
F7
0A
14
0C
F0
D9
20
2A
