FC
FD
0D
FD
C6
0A
0B
00
36
ED
D8
3B
EC
DB
01
FE
05
FB
ED
FE
03
F2
16
00
F5
13
FA
ED
08
D7
E4
FE
E7
FD
00
FF
EF
11
08
DC
0D
0A
FC
03
09
01
01
0F
05
07
F1
EF
08
F5
F9
EF
03
F8
FA
0B
FF
FC
0E
03
FD
06
06
FB
00
0F
FF
F7
05
F9
F2
02
FA
F8
F0
31
FC
81
17
1A
FA
F7
F9
0E
EF
FC
F7
FD
0E
E7
E6
37
F6
F3
00
DF
D5
E3
34
D8
D8
05
FD
FC
02
00
06
0E
FE
42
02
EF
22
F2
F0
FE
19
00
04
FE
F3
FC
FA
0D
F3
FE
08
04
03
01
D2
DA
F5
1F
F9
E8
00
07
06
FB
03
03
FE
F6
FE
18
02
AC
07
02
06
1F
F7
E1
28
F3
F8
09
FB
FF
09
FF
15
F8
EC
0B
02
0D
F9
05
FC
EE
EC
05
F6
CA
F6
FE
04
CA
F0
F1
FC
EE
F0
FD
F7
F7
EF
37
FA
F8
01
1C
FB
12
FD
EC
F9
F9
14
13
EF
C7
09
0E
06
B6
08
F8
98
F7
F9
FF
A9
CC
09
F9
F8
EB